00000000
3ee0cb84
3f014bcc
3ecf24a5
3f2b5abf
3e494b15
3b0ff61a
3f702855
3e817c21
3f6b06bc
3f287c0c
3dfc9338
3cbdf1bb
3f12fbb5
3f5f9670
3f2f688f
3f2c7776
00000000
00000000
00000000
00000000
00000000
00000000
00000000
00000000
00000000
00000000
00000000
00000000
00000000
00000000
00000000
00000000
00000000
3ef94b80
3f5e33c5
3f17b40e
3e5bdce5
3c278d36
3f03cb26
3f7ef677
3d02cb72
3f1a002f
3d62b147
3f06db0d
3db709bf
3f43b220
3f50c414
3f6393b3
3e27d50e
3e5cad30
3f49a593
3f49e819
3d887d96
3edd765e
3d5aa520
3eae8ea2
3f0284cc
3c834633
3e85d24b
3eba3678
3f426993
3d132418
3d944a37
3e39e92a
3f05d801
3f70bd0b
3f462e59
3f3ccf3b
3f735b40
3e93f2ff
3f3bc5b2
3f7b87f7
3f63f9ae
3f49f0c6
3f026304
3f7adae6
3f0da2e6
3ea64e30
3f5e6e99
3f379829
3f0a5264
3f28142c
3f018042
3f1b6217
3db67ad8
3f0f2a94
3f72a968
3f195427
3f1344c6
3e564a35
3f766f63
3eab5cb2
3e7b133b
3d0f8a9b
3f0428a3
3f449cd0
3f79b5b5
3e94adf9
3f016c0b
3f6d10f5
3f14507c
3e74c6f3
3f6898ed
3ef09453
3ce4505f
3ed5f7e2
3ee64a1f
3f14c569
3f3e2309
3ea32751
3e98bb25
3e90eada
3f79a7d5
3f4dddd5
3f63d784
3d83b97c
3eba10d2
3f5680eb
3f29cb56
3f704d2f
3d41378c
3f203ab9
3e8bf70f
3e95b08f
3f293363
3f4a242b
3d77517d
3f22e918
3da3d93d
3f10e123
3f0ffa0d
3f28cba3
3f4e12e0
3ef125f4
3e045734
3f553563
3f638eeb
3f143adc
3ed3f597
3f21b1f4
3f65ce85
3f36585e
3f6a2761
3f5f7659
3f043633
3f4dfee5
3f6fed89
3f613e9c
3f247fd0
3f19b8df
3f518bca
3f309349
3e67ce62
3dbc3a92
3f7b6b91
3f6326fb
3f61ab7d
3d2e0a88
3f061013
3f7626a5
3f1bc1cb
3db05105
3f1ef248
3ed3a956
3f0e9d1b
3f400815
3e7c2836
3ee4580b
3ea885e4
3f2904d9
3d9eefcd
3e6845db
3ebeba6e
3f7e055b
3dcc3e82
3f639369
3f4c0440
3d175594
3f44d205
3ee10820
3f232e39
3f165dcf
3e045d64
3f5d21d1
3f2de522
3de4174f
3f4048cc
3f0f909f
3e1d8e49
3e8cb1c0
3f05b744
3f43255e
3eb8c601
3e12a632
3e33e822
3f6b001b
3f64b1a2
3ed8082c
3eba5841
3e63d24f
3da84779
3ee21434
3ee60c15
3ee8cc4c
3ede1eea
3f0c8ddb
3eaff31f
3e6c4ed2
3f160334
3de65ca4
3f2b97c5
3e64c5b3
3f332964
3f4caf1e
3db299ee
3ec21d0b
3f693208
3f569c0a
3f709f25
3d84accf
3de7a750
3eecacd2
3f53baf8
3ef2afd5
3f1afff5
3b350016
3ec8b00b
3eff632e
3ed9722c
3f418426
3f38a62b
3f01c205
3e4a3901
3e2eb0d5
3f76282b
3f219db5
3f383a10
3e9c4376
3f5cb16a
3e9c7a89
3ed5da9f
3f08492e
3f076eb1
3df0b59c
3ea9f098
3f1dc1ef
3efe4a72
3e78a94f
3ee8bbf2
3edf88bc
3e9d7fdb
3f1152e3
3f661ac7
3e09eb94
3d2aacd5
3f011abc
3e0cbf94
3ede05a5
3b4c52f0
3f0fe8fb
3e421be2
3f39727e
3d8d5805
3ec62a71
3f651eb3
3cfa657e
3c965dbc
3f1d58c3
3eabe9ce
3f616458
3f6b9608
3f40e236
3ed35b0c
3ee60971
3f5ef8ea
3f3ea5d2
3d86353b
3ebc3c46
3f7cd026
3f0524a0
3f4de281
3e972026
3db3bc1a
3f33fd48
3edc15f0
3e048942
3e54600f
3f113add
3f102523
3e57915b
3e048f63
3f40ac1c
3f6f56d4
3e4b3b65
3e0f0552
3f547587
3e6a8815
3e21d10a
3ee39c95
3f1096ec
3d1d89a1
3ebac8a5
3ea2f245
3ee70c40
3f50690b
3e41c830
3e48afc8
3f612fb2
3f0e902f
3e3bf05f
3ecca8a5
3eb8e560
3ef51856
3ef997ac
3d837fc0
3f689723
3f1dee27
3e8b0ff7
3ef3a401
3e384d27
3ef6d8a5
3f1af5d9
00000000
00000000
00000000
00000000
00000000
00000000
00000000
00000000
00000000
00000000
00000000
00000000
00000000
00000000
00000000
00000000
00000000
00000000
00000000
00000000
00000000
00000000
00000000
00000000
00000000
00000000
00000000
00000000
00000000
00000000
00000000
00000000
00000000
00000000
00000000
00000000
00000000
00000000
00000000
00000000
00000000
00000000
00000000
00000000
00000000
00000000
00000000
00000000
00000000
00000000
00000000
00000000
00000000
00000000
00000000
00000000
00000000
00000000
00000000
00000000
00000000
00000000
00000000
00000000
00000000
00000000
00000000
00000000
00000000
00000000
00000000
00000000
00000000
00000000
00000000
00000000
00000000
00000000
00000000
00000000
00000000
00000000
00000000
00000000
00000000
00000000
00000000
00000000
00000000
00000000
00000000
00000000
00000000
00000000
00000000
00000000
00000000
00000000
00000000
00000000
00000000
00000000
00000000
00000000
00000000
00000000
00000000
00000000
00000000
00000000
00000000
00000000
00000000
00000000
00000000
00000000
00000000
00000000
00000000
00000000
00000000
00000000
00000000
00000000
00000000
00000000
00000000
00000000
00000000
00000000
00000000
00000000
00000000
00000000
00000000
00000000
00000000
00000000
00000000
00000000
00000000
00000000
00000000
00000000
00000000
00000000
00000000
00000000
00000000
00000000
00000000
00000000
00000000
00000000
00000000
00000000
00000000
00000000
00000000
00000000
00000000
00000000
00000000
00000000
00000000
00000000
00000000
00000000
00000000
00000000
00000000
00000000
00000000
00000000
00000000
00000000
00000000
00000000
00000000
00000000
00000000
00000000
00000000
00000000
00000000
00000000
00000000
00000000
00000000
00000000
00000000
00000000
00000000
00000000
00000000
00000000
00000000
00000000
00000000
00000000
00000000
00000000
00000000
00000000
00000000
00000000
00000000
00000000
00000000
00000000
00000000
00000000
00000000
00000000
00000000
00000000
00000000
00000000
00000000
00000000
00000000
00000000
00000000
00000000
00000000
00000000
00000000
00000000
00000000
00000000
00000000
00000000
00000000
00000000
00000000
00000000
00000000
00000000
00000000
00000000
00000000
00000000
00000000
00000000
00000000
00000000
00000000
00000000
00000000
00000000
00000000
00000000
00000000
00000000
00000000
00000000
00000000
00000000
00000000
00000000
00000000
00000000
00000000
00000000
00000000
00000000
00000000
00000000
00000000
00000000
00000000
00000000
00000000
00000000
00000000
00000000
00000000
00000000
00000000
00000000
00000000
00000000
00000000
00000000
00000000
00000000
00000000
00000000
00000000
00000000
00000000
00000000
00000000
00000000
00000000
00000000
00000000
00000000
00000000
00000000
00000000
00000000
00000000
00000000
00000000
00000000
00000000
00000000
00000000
00000000
00000000
00000000
00000000
00000000
00000000
00000000
00000000
00000000
00000000
00000000
00000000
00000000
00000000
00000000
00000000
00000000
00000000
00000000
00000000
00000000
00000000
00000000
00000000
00000000
00000000
00000000
90000000
90002000
90001000
90003000
7ffff000
7fffe000
00000010
00000010
00004197
80818193
02000e93
0d0efed7
00002eb7
300eaef3
00000e93
80502373
806023f3
40000e13
03c30333
00730133
00000213
80102f73
40000e13
03cf0f33
01e38433
00003517
fc850513
00003617
fc060613
00c50863
00052023
00450513
fec56ce3
803022f3
0002a303
0042a503
0302a383
0342ae03
00003e97
f88e8e93
00003f17
f84f0f13
007ea023
01cf2023
00000f97
018f8f93
305f9073
000300e7
0000400b
0040006f
00100313
00001297
f5428293
0062a023
01010113
01420213
0010200b
5e024057
fe112823
0480200b
fe102e2b
0480200b
fe202c2b
0480200b
fe302a2b
0480200b
fe40282b
0480200b
fe50262b
01452283
01052303
00c52383
5e03c257
fe712e23
00852383
5e03c257
fea12a23
01c52483
fe912c23
0010200b
5e02c1d7
0010200b
5e034257
0010200b
5e03c2d7
00100293
5e02c057
38c000ef
0010200b
020040d7
5e004057
3e8000ef
0010200b
02004157
00100293
5e02c057
3d4000ef
ff812383
5e03c257
5e004257
00138293
0400200b
961230d7
020081d7
0400200b
0223c0d7
02304157
a612e157
02213157
960130d7
00000317
0343305b
0400200b
0222145b
ff412283
0002a283
5e02c257
963131d7
023201d7
0041a1fb
0400200b
02408257
0032607b
0000205b
0400c00b
96213157
0400200b
02510157
000121fb
96023257
0080200b
02410257
96413257
0400200b
023202d7
0032e07b
0400c00b
0002a37b
0400200b
024081d7
0001a3fb
ffc12283
5e02c1d7
92639357
0062e07b
0400c00b
01100293
00100393
00100493
0140006f
0000205b
00139393
0400c00b
0453fa63
5e004357
40938333
5e0343d7
267003d7
00000317
fe03305b
fc731cdb
0002a37b
0013d313
020343d7
967233d7
0080200b
027103d7
967133d7
0400200b
023383d7
0003a3fb
02639357
0062e07b
fa5ff06f
0002a2fb
5e004357
0051607b
0400c00b
00000317
0343305b
0400200b
0223145b
0400200b
023080d7
0000a0fb
0010200b
a60220d7
0400200b
96113057
02300057
0010607b
0000205b
ff012083
0090200b
7fc020ab
0090200b
7f80212b
0090200b
7f4021ab
0090200b
7f00222b
0090200b
7ec022ab
ff010113
fec20213
0010200b
5e024057
00008067
01810113
00820213
0010200b
5e024057
fe112423
0480200b
fe102e2b
0480200b
fe202c2b
01052283
fe512823
01452283
fe512623
00852283
fe512e23
00052283
fe512c23
00452283
fe512a23
00100293
5e02c057
154000ef
0010200b
020040d7
5e004057
1b0000ef
0010200b
02004157
00100293
5e02c057
19c000ef
fec12483
ff012383
5e0041d7
ff412283
00128293
0400200b
961230d7
02008257
0400200b
0220b0d7
0212c157
5e02c2d7
96413357
a622a257
96113157
ff812303
022340d7
0000a2fb
800032b7
0082a283
5e02c3d7
925392d7
ffc12303
02634357
96413257
0244c457
000424fb
0043257b
929394d7
a29512d7
0243c257
000224fb
029292d7
0052607b
0000a27b
000422fb
0043237b
92439257
925392d7
a2531257
0044607b
0080200b
2a008057
0400c00b
00000317
0503305b
0401945b
5e04c057
5e03c1d7
0000a27b
02010057
000022fb
5e02c357
02310157
000121fb
925312d7
a2531257
023211d7
0031607b
0000217b
0000a0fb
92231157
a22310d7
0010607b
0000205b
fe812083
0090200b
7fc020ab
0090200b
7f80212b
fe810113
ff820213
0010200b
5e024057
00008067
00410113
fe112e23
00200293
5e02c0d7
00000317
04c3305b
0200885b
00100293
5e02c0d7
00000317
0383305b
0200825b
5e0040d7
00000317
0283305b
00009e5b
10c000ef
0180006f
11c000ef
0100006f
108000ef
0080006f
5e004057
0000205b
ffc12083
ffc10113
00008067
00410113
fe112e23
00200293
5e02c0d7
00000317
04c3305b
0200885b
00100293
5e02c0d7
00000317
0383305b
0200825b
5e0040d7
00000317
0283305b
00009e5b
0c4000ef
0180006f
144000ef
0100006f
0e4000ef
0080006f
5e004057
0000205b
ffc12083
ffc10113
00008067
00410113
fe112e23
803026f3
0086a283
164000ef
0246ae83
0a0ec2d7
00100f13
05e28263
184000ef
00c6af83
0286af03
0a0f4357
966fe357
025302d7
00200f13
03e28263
194000ef
00c6af83
0106a303
02c6af03
0a0f4357
966fe357
96636357
025302d7
02504057
ffc12083
ffc10113
00008067
80802573
5e054057
00008067
80902573
5e054057
00008067
80a02573
5e054057
00008067
00410113
fe112e23
80302573
00852283
80002373
5208a157
02234057
01852e03
8a0e6057
ffc12083
ffc10113
00008067
00410113
fe112e23
80302573
00852283
80002373
5208a157
02234057
01852e03
01c52e83
03ce8f33
8a0f6057
820e6057
5e0ec0d7
00000317
0143305b
0000c65b
fff00f13
021f4057
0000205b
ffc12083
ffc10113
00008067
00410113
fe112e23
80302573
80002373
5208a157
02234057
01852e03
01c52e83
02052f03
03ce8eb3
820ee057
5e0f40d7
00000317
0143305b
0000c65b
fff00f13
021f4057
0000205b
ffc12083
ffc10113
00008067
00410113
fe112e23
f1dff0ef
80302573
80802373
01852e03
02452e83
03c30fb3
01df8fb3
020fc057
ffc12083
ffc10113
00008067
00410113
fe112e23
f19ff0ef
80902373
01c52383
02852e83
02730e33
01de0e33
020e4057
ffc12083
ffc10113
00008067
00410113
fe112e23
f41ff0ef
80302573
80a02373
02052383
02c52e03
026383b3
01c383b3
0203c057
ffc12083
ffc10113
00008067
80302573
01852283
5e02c057
00008067
80302573
01c52283
5e02c057
00008067
80302573
02052283
5e02c057
00008067
80302573
00c52283
5e02c057
00008067
80302573
01052283
5e02c057
00008067
80302573
01452283
5e02c057
00008067
80302573
02452283
5e02c057
00008067
80302573
02852283
5e02c057
00008067
80302573
02c52283
5e02c057
00008067
80302573
00c52303
01852283
02535333
5e034057
00008067
80302573
01052303
01c52283
02535333
5e034057
00008067
80302573
01452303
02052383
02735333
5e034057
00008067
80302573
00852283
5e02c057
00008067
800000b8
90004000
00000002
00000004
00000010
00000001
00000004
00000004
00000001
00000000
00000000
00000000
00000000
00000000
00000000
00000000
